1001100000101001
0000000011001100
0000000000110100
0000000011010001
1010001001010010
0000000000000000
0000000011010100
0000000011001001
1010000101010101
0000000011001010
0000000000011100
0000000011101011
1010100110000001
0000000011110011
0000000000100110
0000000011000100
0010001001010110
0000000011011101
0000000011000110
0000000000011100
1001100100000101
0000000000110001
0000000000010010
0000000011011011
1000010101100010
0000000011010001
0000000011000010
0000000011101111
1000000101000001
0000000000001100
0000000011011010
0000000000110110
