1001000010011010
0100000000000000
0000000001001010
1001011001011000
0001011001010000
0101000010000001
1001000100100110
1010010100100101
0000000000001011
0000000011011010
0000000000110000
1000000100011001
1001000101010110
0100000100010110
0010011010000010
1001010100001001
1010001010011000
0001100001100110
0101010101000100
0000000000001101
0000000000101001
0000000000000000
0010010001001001
0101100001101010
1000100000100110
0101100000100010
0101101001000100
0110100010010101
1001001001010100
0010100001100000
0000000011001101
0000000011100111
0000000011010001
0100010000000000
0010011000101010
0001010100000000
0101101001000100
0101011000010000
0001100101011000
0010000100100001
0101000010001000
0000000000000011
0000000011100011
0000000011001001
