1010001001011000
0000000000010001
0000000011010011
0000000000011101
0010001001000001
0000000000010000
0000000000111011
0000000000111110
0010011000000110
0000000000011000
0000000000111101
0000000011011110
1010000000000000
0000000000100001
0000000000101110
0000000011101100
1010010100000101
0000000000001101
0000000000111000
0000000000111011
0000000101010101
0000000011000000
0000000011101101
0000000000000100
0001100000100110
0000000000110001
0000000000000010
0000000011101110
1000011010100001
0000000011010110
0000000000011111
0000000000011010
